encog,BasicNetwork,java,3.4.0,1,1582034574028
[BASIC]
[BASIC:PARAMS]
[BASIC:NETWORK]
beginTraining=0
connectionLimit=0
contextTargetOffset=0,0,0,0,0
contextTargetSize=0,0,0,0,0
endTraining=4
hasContext=f
inputCount=4
layerCounts=5,8,8,8,5
layerFeedCounts=5,7,7,7,4
layerContextCount=0,0,0,0,0
layerIndex=0,5,13,21,29
output=0,0.033026525,0.1640250956,0.8927643308,0,0,0.7488434489,0.4752616148,0.0987727081,0,0,0,1,1.3399261804,0,1.1503004761,0,0.0799712153,0.4888341998,0,1,0,0.7155879452,0.4177582062,0,0,0.156717459,0,1,0.2,0.2,0.2,0.8,1
outputCount=5
weightIndex=0,40,96,152,187
weights=0.0413178327,-0.34056747,0.896184535,0.7916586368,0.0519163433,0.2890274363,0.4124009479,-0.8002920318,-0.6815021922,-0.2302679998,0.9622718082,-0.2072073897,0.2892226772,-0.8560312653,0.2603211066,-0.2314032103,0.4953201497,0.7519321209,0.6073188358,0.6404714923,0.2793105404,0.7206488167,-0.1627722412,-0.7509507814,0.7068357914,-0.357009153,0.7495600893,0.5675872033,0.3494315908,0.3903042667,-0.2772847118,0.7478090326,-0.9446834074,0.6120182512,-0.1571195492,-0.8929530892,-0.2057700341,-0.7467327435,-0.9677180888,-0.6512220336,-0.0464101625,0.1085692307,-0.1270770301,0.8716026311,0.239215701,0.2255553187,-0.730387946,-0.0821136222,0.8407365457,-0.8935234189,-0.6303259592,-0.4790467043,0.8993131111,0.1943230087,0.0883028208,0.1804718965,0.3447181475,0.016120763,-0.3163210745,-0.0063698673,0.4550960843,0.7680169511,0.8731592271,-0.0345985119,-0.6111377385,0.4644862156,0.1133470252,-0.2616387692,0.4786888362,0.0680825594,-0.2671477467,0.7157066153,0.4926046648,-0.1604697233,-0.6798768254,-0.4676467561,-0.2706586956,-0.9710348096,-0.0884103532,-0.8421047492,-0.5073147866,0.4142342622,0.6563894862,-0.1903866966,0.9219773479,-0.1685021819,-0.7381094423,-0.3013152943,0.2045778922,0.2278804443,-0.364270213,0.8396445122,-0.7562002644,0.3658682878,-0.2999357152,-0.7440385964,-0.8042445252,0.3061995422,0.5099420223,-0.6295520432,0.6951313436,0.1577094351,0.3184125182,0.8830651928,-0.496296461,-0.5861472773,0.0949560624,-0.135859372,0.9136727943,0.7420458449,0.220612704,-0.5855673363,-0.5586265044,0.5055827644,1.0105644711,0.1789097718,1.5040803749,0.6063563675,-0.0849995867,0.2713133148,0.292337262,-0.9097938652,0.8305038186,0.5248917855,0.2479239292,-0.6756199298,0.8003003636,0.2437054596,0.2199199298,-0.0841845968,0.9594681707,0.4649265676,0.7792250195,0.5386425849,-0.5189605208,-0.3450277013,-0.0866535946,-0.0879158237,0.9101629714,0.2137171933,-0.9791652535,0.9676116146,-0.9972377517,0.0198760197,0.998861212,0.3239876041,-0.6046629254,-0.2912672236,-0.0513500192,0.7976678747,0.067097403,-0.8650203759,0.8144566149,-0.7387281864,0.1607241631,-0.5013270523,-0.5475366379,-0.2338785844,0.8070356151,-0.5498914885,-0.1515993144,0.8322142882,0.9760389364,0.6668523666,0.0558307339,0.2911086405,-0.1548731136,-0.8995107711,0.9179140208,0.085439283,-0.1356436727,0.0016330594,0.8126816518,-0.429311288,-0.5428592884,-0.8916295915,-0.4191409045,0.6987908969,-0.1819543641,0.7477028547,0.0745829959,-0.1558568152,-0.1975320828,0.6380135605,0.0327298962,-0.3975983002,-0.3828590843
biasActivation=0,1,1,1,1
[BASIC:ACTIVATION]
"evoagentsimulation.simulationlearning.ActivationClippedLinearPositive"
"org.encog.engine.network.activation.ActivationReLU",0,0
"org.encog.engine.network.activation.ActivationReLU",0,0
"org.encog.engine.network.activation.ActivationReLU",0,0
"org.encog.engine.network.activation.ActivationLinear"
