encog,BasicNetwork,java,3.4.0,1,1583780257911
[BASIC]
[BASIC:PARAMS]
[BASIC:NETWORK]
beginTraining=0
connectionLimit=0
contextTargetOffset=0,0,0,0
contextTargetSize=0,0,0,0
endTraining=3
hasContext=f
inputCount=4
layerCounts=3,15,15,5
layerFeedCounts=3,14,14,4
layerContextCount=0,0,0,0
layerIndex=0,3,18,33
output=1,0.7289646787,1,1.2569825026,0,0,0.6586740256,0,1.4245610692,1.1847567905,0,0,0,1.2782989536,0.6605303402,0,1.0724439637,1,0,0,0,0.5884763712,0,0,0.5166159917,0.9687955447,0,0.0114320545,0,0.2065447533,1.3687152998,0.3765101299,1,0.2,0.5,0,1,1
outputCount=3
weightIndex=0,45,255,325
weights=0.2930219505,0.4057663167,-0.7594048668,0.0060058229,0.7363702527,-0.1975901384,-0.5171973032,0.2885015954,-0.4526768127,-0.9153840082,0.840800021,-0.2073374387,-0.7457127644,0.9100363949,0.225429181,0.223168123,-0.2703533909,-0.5284962739,0.3921975585,0.0872965826,0.1575274997,-0.3017877713,0.5390491614,-0.7107597423,0.5631230352,-0.3761421674,0.6097781193,0.4202585659,0.1006299998,0.2933786307,-0.1704711921,-0.091723959,-0.9096863645,0.0398440154,-0.4736944028,0.1641031602,0.9044049022,0.703424017,-0.2898127099,0.8689804871,-0.1684490457,-0.0010610741,0.8185820893,0.4418286722,0.5231237187,-0.9288355229,0.7401076212,-0.1395862687,0.2779271333,0.092944639,0.3924752057,-0.3122470648,-0.2793871118,0.1604043958,-0.918996399,0.8913794351,0.5339838492,0.7202111867,0.9446887237,0.084175278,-0.8683018366,-0.1616545863,0.2727924665,0.1233568875,0.8148570402,0.7105142368,0.4960954688,0.637587049,-0.3924064893,-0.9708897208,0.3687927591,-0.1228341236,-0.3519199042,0.3870353629,-0.574975644,-0.8986684198,-0.1578877449,0.3975304736,0.1975054851,0.4882614218,-0.0248152184,-0.6945358992,-0.303516175,-0.8938833108,0.4731296202,0.917632561,-0.5295734888,0.4126092844,-0.6805566416,-0.2781879221,-0.5648688175,0.8497674658,-0.4489027488,0.2169195244,0.9096364937,0.5647272274,0.0806085453,0.1554777333,-0.0263647671,-0.1450368878,-0.0393057146,-0.5436069924,-0.3805532373,0.5871179004,0.7525026552,0.636629168,0.4393667047,0.7616996621,0.4358662619,-0.1909572322,0.4679443381,-0.9391151148,0.6013245736,0.1532132422,0.5109562866,0.3428900999,0.482746176,-0.8673148269,-0.0733427813,-0.6627362419,0.8295753595,0.4827623164,-0.5442145877,0.2905527662,-0.9797358007,0.0534002021,-0.613646615,0.9169437482,0.8666253871,-0.1451834001,0.8489355115,-0.893339599,0.8393307352,0.743278738,-0.5602161732,0.4455713544,-0.2645766899,0.2119846004,0.8596911986,-0.1030588772,0.047325017,-0.9116978376,0.1754950341,0.5285237633,-0.8934134539,0.8941800089,0.9733408082,0.1852156334,0.7146601526,0.266418565,0.6584321903,0.7670267926,-0.4138519317,-0.5655102373,0.3779583078,0.8905305295,0.6468500606,-0.5984850707,0.1884295111,-0.221898806,0.5998001195,0.614538763,0.2122635232,0.3921014719,-0.8754089952,-0.6451861224,0.739715858,0.7915725768,0.8287663515,-0.3504894847,0.191000031,0.4101940509,0.3676653539,-0.6641235842,-0.9776887887,0.2247139487,0.871896332,-0.6210688702,-0.9610329067,-0.8437403508,-0.832595307,0.2847781651,-0.2123864114,-0.6161287086,-0.6222298016,0.6483524977,0.6823207195,-0.9014730892,0.4657251903,-0.2379260327,0.0930792832,0.5891115938,-0.5850977049,0.8192418098,0.7386266751,0.6013031676,-0.2818232723,-0.7751333406,-0.7702277995,-0.1057146411,-0.4791307062,0.7585116041,0.6976800575,0.6280131085,0.9801342411,0.8448865953,-0.4689113341,0.7849556124,0.2613760897,-0.4233540159,-0.7676460252,-0.0343179053,0.1089945342,-0.0742222156,-0.353860814,0.1764886524,0.8405292703,-0.847635393,-0.9887437066,-0.3946041051,-0.3991338617,0.7572985284,0.2938809427,0.0832909229,0.5056587692,0.767130073,-0.3442537204,0.7749927148,-0.1822247268,-0.1678214435,0.8942070001,-0.1354184484,-0.8299798291,0.747223823,-0.2968269181,-0.4005425102,-0.2250301061,-0.9512526552,-0.3216405819,0.253691387,-0.2032273071,0.5107520976,0.3367270095,0.2066786244,-0.1774032381,-0.8809694123,0.805461023,-0.0778781577,-0.4335291169,-0.3869750859,0.8072915049,-0.4155021207,-0.4190515814,0.7916806008,0.9758826921,-0.0578433112,-0.8188536857,0.6939441749,-0.7136304378,0.311001555,0.7543248405,-0.0424649106,-0.6988403221,-0.9403549818,0.1178705061,-0.5716939378,0.8813652114,0.2373589641,-0.5517197376,-0.3519092412,0.1415363426,0.9327582616,0.4419066823,-0.0193856943,0.1131756662,0.5026619709,0.6523567177,-0.5442325191,-0.9563058207,-0.1564038889,0.3328380228,0.8090288684,-0.7164598349,-0.9967070041,-0.6460449931,-0.7333667123,-0.7671086769,-0.6909201913,0.0530945498,0.9937491228,-0.6392977913,0.5605083145,-0.8451418437,0.3369055958,0.4794953499,0.1269016125,-0.3962256816,-0.4776963908,0.6222144097,-0.5185093428,-0.9251476153,-0.8797126515,0.5783590502,-0.2422778272,0.8785957305,-0.6231516563,0.3701316084,-0.2776755386,-0.3302605062,-0.1362349334,0.845143785,-0.2878840058,-0.7383039562,-0.4944885105,0.6759465097,0.1000752035,0.2839017666,-0.666674427,0.7559187834,0.4508305924,0.3242363529,0.6270602287,-0.3561292137,0.4611620637,-0.4630293187
biasActivation=0,1,1,1
[BASIC:ACTIVATION]
"evoagentsimulation.simulationlearning.ActivationClippedLinearPositive"
"org.encog.engine.network.activation.ActivationReLU",0,0
"org.encog.engine.network.activation.ActivationReLU",0,0
"org.encog.engine.network.activation.ActivationLinear"
