encog,BasicNetwork,java,3.4.1,1,1602682061126
[BASIC]
[BASIC:PARAMS]
[BASIC:NETWORK]
beginTraining=0
connectionLimit=0
contextTargetOffset=0,0,0,0
contextTargetSize=0,0,0,0
endTraining=3
hasContext=f
inputCount=5
layerCounts=2,8,8,6
layerFeedCounts=2,7,7,5
layerContextCount=0,0,0,0
layerIndex=0,2,10,18
output=0.9665141518,0.049967593,0,1,0.0000035352,0.1750564973,1,0.9998932435,0.1955016058,1,1,0,1,1,0.1039777651,0.2958946318,1,1,0.7,0.8,1,0.7644755554,0.2620188141,1
outputCount=2
weightIndex=0,16,72,114
weights=-0.8829817208,0.065956978,-1.0801249569,0.154631306,0.0818058716,0.2463188809,0.6845811407,0.4115566088,0.9301309365,0.0179352959,1.1845421603,0.9230076236,0.2741670476,-0.1930205734,0.9494752964,-0.3963413976,-1.8442280368,-12674.3245662961,-1.2472001318,-1639.9399206002,1039.6380998246,3887.0878378598,0.2306147863,-1.8569684701,0.1912728601,6020.0319535676,0.6513318408,-2150.8519911612,13248.6121949247,9438.8749582667,-0.4891945741,-2.5387373495,-15.7237557909,11.7069022426,-5.7763871248,10.3656582089,58.3572874116,0.7058385245,-6.6694107043,-1.0255432504,-0.6263791244,-3.8601287032,0.3454942129,0.416797485,-1.1508457099,-0.0536472045,-0.4977385824,-1.0528438456,-0.3405066115,-119.977576008,0.6616566683,2.9697863944,1847.4095360624,16.4268381237,-0.9420950445,0.0114340898,1.1382715644,10195.9999197891,1.5383158472,1.8478372061,-257.2407755373,107.6263697605,0.4182897966,-0.896604867,-0.9855653509,0.3603319278,-0.9229004008,0.2672622827,0.5534937076,-1.4086624535,0.5730593437,0.0127583673,5644.1189842925,889.077773737,3798.8387547692,4.0457147851,4708.2992886086,2.1227270162,383.940152832,-74.1566680171,-291.7906332744,6.5874480885,64.7963182116,1.4634755685,5435.6628398058,1601.1971381542,4916.3974225816,3.7379436442,2053.157909689,3.7153532475,525.1411560932,-0.8118208664,-0.7773710508,774.9453314681,-11.3439185978,3.2323178005,-4.1546675618,0.3855126169,0.1194001796,-0.4165094918,-0.3005650504,0.7238338938,-3.8988192845,-0.0971853889,0.7968626456,0.2804011637,0.2359010143,0.8669642267,7394.0548512895,1905.5705115348,5008.4146840884,1878.4350869321,2336.0745842051,3.6944569495
biasActivation=0,1,1,1
[BASIC:ACTIVATION]
"org.encog.engine.network.activation.ActivationLinear"
"org.encog.engine.network.activation.ActivationSigmoid"
"org.encog.engine.network.activation.ActivationSigmoid"
"org.encog.engine.network.activation.ActivationLinear"
