encog,BasicNetwork,java,3.4.1,1,1602682023733
[BASIC]
[BASIC:PARAMS]
[BASIC:NETWORK]
beginTraining=0
connectionLimit=0
contextTargetOffset=0,0,0,0
contextTargetSize=0,0,0,0
endTraining=3
hasContext=f
inputCount=5
layerCounts=2,8,8,6
layerFeedCounts=2,7,7,5
layerContextCount=0,0,0,0
layerIndex=0,2,10,18
output=0,0,0,0,0,0,0,0,0,1,0,0,0,0,0,0,0,1,0,0,0,0,0,1
outputCount=2
weightIndex=0,16,72,114
weights=1.3853849704,0.3382084241,2.0892953477,0.6459572898,-0.681603234,-2.0791862778,-0.5980987487,0.1563486437,-1.2335172423,0.4581324172,-1.7065683551,0.0708433217,-0.5945401398,3.1620066306,0.503133929,0.1035897683,-0.0477011393,0.0715464013,-8.0426087501,7.5737351803,-0.4203226169,0.7683161449,1.0290426083,-1.1229204067,0.1565734931,-0.3322099753,-0.3911252531,0.4073717358,0.5519327173,-0.3548285185,0.8213560199,-0.7547941535,-1.9331974477,-0.0467882497,2.4752703023,-5.240804758,-0.6487221937,0.6079255276,-0.4749503079,-0.1977947524,-3.5584979919,-0.2817457105,-0.4856356994,5.6349793362,0.8185761627,0.2985505989,-0.7393585154,-0.3981608199,-1.3939310832,-0.0723004609,0.5416357582,0.2846747005,0.2616346055,0.0535762784,-0.2973354642,0.3184463903,-1.0412698235,0.225314068,-0.2291503477,-1.8136993163,0.5137502334,0.2330573921,-0.1328087622,0.1090147055,-1175.3829811364,-1.1615181242,1.4819400349,-2185.0404381586,-0.4271881771,-0.1163920975,-325.0465088138,-0.7329766183,9.9247972114,4.5360005281,-1.7323703756,-11.4317934158,-1.9594488217,-3.9240211355,4628.8097922203,1729.3346185178,1022.8154904592,-1053.5514395863,-103.892420677,0.2242752453,-1.4555505834,0.5058522097,-0.596436996,0.2356348178,-0.4406116261,1.1591420153,9.7922400212,0.1625248698,-0.1833168803,-1.4924873243,-2.0002510835,-3.7234008435,6.1187634839,2.3454934393,8.7976793609,0.1984386658,-0.7552832252,0.8046872422,923.6882261739,579.8391769259,-2.3515581243,-76.5464176676,-980.1218798025,0.0348794621,7.6759219378,0.4331198537,-2.7789007216,-0.2471267442,-0.1294133008,-1.6262870794
biasActivation=0,1,1,1
[BASIC:ACTIVATION]
"org.encog.engine.network.activation.ActivationLinear"
"org.encog.engine.network.activation.ActivationSigmoid"
"org.encog.engine.network.activation.ActivationSigmoid"
"org.encog.engine.network.activation.ActivationLinear"
