encog,BasicNetwork,java,3.4.1,1,1602682042573
[BASIC]
[BASIC:PARAMS]
[BASIC:NETWORK]
beginTraining=0
connectionLimit=0
contextTargetOffset=0,0,0,0
contextTargetSize=0,0,0,0
endTraining=3
hasContext=f
inputCount=5
layerCounts=2,8,8,6
layerFeedCounts=2,7,7,5
layerContextCount=0,0,0,0
layerIndex=0,2,10,18
output=0,0,0,0,0,0,0,0,0,1,0,0,0,0,0,0,0,1,0,0,0,0,0,1
outputCount=2
weightIndex=0,16,72,114
weights=-21.771989633,6.8137526161,3.8141874781,1.4808736642,0.1602159909,-29.120185172,-2.4007851066,-0.6325374074,4.2025099656,-8.4141665645,-3.0500379585,0.6326089806,1.3990267183,2.653897637,2.0300150011,-0.3672495698,-95.9005968232,47.6231235854,-0.6098425998,-60.5447388424,-2608.2093500618,0.0685119107,-0.1001300497,0.0911962241,-42.643962111,215.0452592065,0.582300564,-213.564785244,-1556.993449232,-1.215031428,-0.8594169817,-0.1623017619,9.2811615271,-1.552155012,-0.9497513062,-0.5283860746,-640.6701144241,-1.1666931676,-0.8939350095,-0.5367181696,-77.8341437567,13.0533154369,-1.6275582975,117.9151695642,-2201.1238853589,0.2549620569,0.7739853634,-0.1253635838,1248.4256133157,40.8524272896,-3.834645265,-840.0316981988,821.9027408667,1.3911940235,-0.0164451937,-0.3774141997,2038.9349405629,-6122.7039451191,-449.6009620243,-2277.419979629,2494.3547249326,0.2783773909,-4.9480529824,-1.6692993358,11.9591244349,-0.9010807612,-0.589432367,-2.7071937829,-419.0518794485,1.021071861,0.9009441329,-0.3049788645,-5.5988300706,0.193601774,-0.1111994942,1.1658066632,0.8555927745,0.071743574,72.0051300584,2910.9713361956,23.2323162719,187.5108428189,-122.0923247557,2.381285508,490.1514893474,1059.5113243516,74.7171586741,468.4675772004,2.9132560977,2.1950256448,38.6081727602,-0.6708059787,-0.7879389841,-0.5260585974,0.775544783,-0.4849494339,-2221.3940334821,-59.1651568708,-1.1265233835,-1836.69820219,-33.7925904508,1.5784141669,9.5435577796,1.0001029259,-0.0431164208,-2.0223760075,-0.4723589122,-0.5812963964,1301.9586275475,575.1471190718,16.4148819148,0.5655854541,-1.2466174509,0.8462387787
biasActivation=0,1,1,1
[BASIC:ACTIVATION]
"org.encog.engine.network.activation.ActivationLinear"
"org.encog.engine.network.activation.ActivationSigmoid"
"org.encog.engine.network.activation.ActivationSigmoid"
"org.encog.engine.network.activation.ActivationLinear"
