encog,BasicNetwork,java,3.4.1,1,1602682042567
[BASIC]
[BASIC:PARAMS]
[BASIC:NETWORK]
beginTraining=0
connectionLimit=0
contextTargetOffset=0,0,0,0
contextTargetSize=0,0,0,0
endTraining=3
hasContext=f
inputCount=5
layerCounts=2,8,8,6
layerFeedCounts=2,7,7,5
layerContextCount=0,0,0,0
layerIndex=0,2,10,18
output=0,0,0,0,0,0,0,0,0,1,0,0,0,0,0,0,0,1,0,0,0,0,0,1
outputCount=2
weightIndex=0,16,72,114
weights=0.5231458771,-0.5717376205,0.7856705944,-1.9387116089,1.4489875941,-1.5696826153,1.0997055276,-0.1546323324,-0.5144668077,0.5765407313,0.6199169978,1.9205255604,-1.1962615161,1.8957417692,1.1447684921,-0.5309914298,-4.7803266171,99.4285100434,-3.832397297,-3.1904162963,-14.8114447649,-4.1964695379,0.6085750055,-3.4680472244,22.3381194501,8.6146937913,0.088108881,-0.0985127242,-0.9809312526,-1.1116793052,-0.1273327858,0.2173095089,-164.675761179,-49.3214649866,0.5984484575,2.0930475559,46.1742909232,2.752808605,0.2174524229,2.1349206108,87.0657758831,17.8475544896,-0.5504716591,-0.8902268368,-3.1507435188,0.2395383586,-1.6496417311,-0.9142379177,34.7770394164,4.8515340491,0.3676512053,-0.4998312083,0.1272450122,-0.2444926688,0.7500041873,-0.4604382497,1.9893786563,-4.4378846169,-0.5506648767,0.4655745734,0.0407790887,-0.6678914814,0.4973151819,-0.2788683488,13.5723932111,12.9070608454,-3.8932585772,-1.3601171589,-1.7858163767,-2.4673983307,-1.5192864731,-1.7044746254,-2.6062340439,-1.8571670066,-0.2599164705,-0.9186056248,-0.8781197844,-0.452286768,-9.6299260857,0.5537573043,0.3591027661,1.4631693584,1.4894486118,2.7189245454,79.8966820324,-49.0518970348,0.6087956403,7.5425456178,3.3579480335,0.1326697821,12197.9730855276,15714.6179605972,14409.9931772796,8666.448884588,3343.6702763073,6334.1044380073,-12.7114063298,2419.8507833522,350.3381309285,58.0081038952,20.6757419381,49.1468876045,136.1703740305,-124.4304386676,-0.4143642933,50.7788624392,5.5441349878,-0.0962564673,445.5248493992,-697.3642763144,278.1025089184,7.8553687481,9.1641618161,0.9165383549
biasActivation=0,1,1,1
[BASIC:ACTIVATION]
"org.encog.engine.network.activation.ActivationLinear"
"org.encog.engine.network.activation.ActivationSigmoid"
"org.encog.engine.network.activation.ActivationSigmoid"
"org.encog.engine.network.activation.ActivationLinear"
