encog,BasicNetwork,java,3.4.1,1,1602682023731
[BASIC]
[BASIC:PARAMS]
[BASIC:NETWORK]
beginTraining=0
connectionLimit=0
contextTargetOffset=0,0,0,0
contextTargetSize=0,0,0,0
endTraining=3
hasContext=f
inputCount=5
layerCounts=2,8,8,6
layerFeedCounts=2,7,7,5
layerContextCount=0,0,0,0
layerIndex=0,2,10,18
output=0,0,0,0,0,0,0,0,0,1,0,0,0,0,0,0,0,1,0,0,0,0,0,1
outputCount=2
weightIndex=0,16,72,114
weights=2.49232064,6.7555852292,40.2150991325,1.0292750137,-1.6637286782,-29.120185172,0.6533258031,-0.6348052596,-0.7714248978,-4.9629794103,-47.9802671044,0.6179698029,1.3865457108,2.653897637,1.5782946755,-0.381838742,-76.5319212883,8.9087085911,-0.8500848964,-73.3188881744,-2933.2093500618,0.0509602756,-0.1557387275,0.0552402383,1.4221650289,1.3356832514,-0.6248236163,-1835.1273891346,-1881.993449232,-1.2657990984,-0.9098924,-0.1739645944,12.347689686,-983.8293626067,-0.9584813438,-760.1784499416,-746.1317144241,-1.174595612,-0.8965486952,-0.5393318553,-1.5028856259,1.0876965354,-1.6284227864,114.9864846719,-2526.1238853589,0.2468611946,0.7738797681,-0.1254691791,-63.5644835944,19.0764472804,-3.8423432005,-1515.3745066195,872.9063888667,1.3525556427,-0.0241431292,-0.3851121352,591.1781128113,-4236.3247246632,-314.1242446412,-2261.6774585555,2819.3547249326,0.2886493694,-4.9378139377,-1.6590088609,7.8563362833,-1.2116960782,-0.5904708167,-3.007288488,-744.0518794485,1.019479764,0.899571322,-0.3063516754,-5.5928388726,0.3808422702,0.0307939493,1.6655012514,0.7154038474,0.0792223797,-7.2113354053,63.077236284,23.1487752086,24.1085444521,-122.0299231155,2.3800403422,-2.4385887418,-1.4237129287,0.869706016,75.7012747625,3.9152189912,1.5112679508,7.7079876451,-0.7021798631,-0.8095752963,-0.5324890856,0.8398986491,-0.4850402105,-91.1783593876,-1.8780798757,-0.2816322912,32.5791974678,-42.0912147525,1.6215447536,9.5204391909,1.0252008722,-0.018199384,-0.3322678723,-3.5752766216,-0.5826966037,-0.3111697223,-0.3687215115,-0.2105834016,0.4473327284,0.7341251986,0.7893143285
biasActivation=0,1,1,1
[BASIC:ACTIVATION]
"org.encog.engine.network.activation.ActivationLinear"
"org.encog.engine.network.activation.ActivationSigmoid"
"org.encog.engine.network.activation.ActivationSigmoid"
"org.encog.engine.network.activation.ActivationLinear"
