encog,BasicNetwork,java,3.4.1,1,1602682061141
[BASIC]
[BASIC:PARAMS]
[BASIC:NETWORK]
beginTraining=0
connectionLimit=0
contextTargetOffset=0,0,0,0
contextTargetSize=0,0,0,0
endTraining=3
hasContext=f
inputCount=5
layerCounts=2,8,8,6
layerFeedCounts=2,7,7,5
layerContextCount=0,0,0,0
layerIndex=0,2,10,18
output=0,0,0,0,0,0,0,0,0,1,0,0,0,0,0,0,0,1,0,0,0,0,0,1
outputCount=2
weightIndex=0,16,72,114
weights=-1272.9586562824,120.9020618533,0.9914372301,1.4714343378,0.938636194,-29.120185172,-2.4034633332,-0.6290549691,836.2794335931,-135.130941676,-2.4454821815,0.5848017859,0.8610072821,2.653897637,2.0015170229,-0.3854160515,-95.8630736696,47.6094821276,-0.6113575103,-60.5483237739,-3313.3547675543,0.0614437699,-0.1016449603,0.0896813135,-42.6380771128,215.0885880659,0.5838262159,-213.4995876936,-851.8480317395,-1.2065328055,-0.8578983048,-0.1607830849,9.2779797025,-1.5486982807,-0.9462945748,-0.5249293432,-7.6959163907,-1.158903347,-0.8904782781,-0.5332614382,40.0617016536,384.0541072684,-1.595470651,160.296234042,-585.3238083229,0.261011536,0.806682739,-0.0926662083,1298.9592652092,168.760252148,-3.7822854739,-241.7650121997,1923.3754442161,1.2041521531,0.0359145975,-0.3250544086,2039.6480361679,-6123.1690546803,-449.7083436089,-2277.4323793549,1767.5139362558,0.2726174393,-4.949219954,-1.6704663075,11.7638310293,-1.3506931808,-0.9281391619,-3.0459005777,-1124.197296941,0.3600026373,0.5622373381,-0.6436856593,-5.5901855092,30.692333397,-0.0329664922,1.2988022275,2.1418714137,0.0744867124,951.2437113705,5661.4053058786,24.2443673588,1010.7441451944,-118.5930279486,2.3820778161,1838.8671748259,4283.0171550266,865.0177240555,1975.6202213438,119.1636308071,2.1960904693,614.7329805935,437.4466869739,-0.5118971404,0.1224832054,3.4394150044,-0.4837881612,-1586.4752515329,2445.7663487782,6.1421311258,-636.582733555,186.8920245205,1.5799290774,9.4210769572,-84.1904475875,-0.1288865373,-111.9431579781,-78.9407848516,-0.5814600916,3008.0636042163,3995.4092420408,416.6818739879,1.7139755569,73.9818437383,0.8479030277
biasActivation=0,1,1,1
[BASIC:ACTIVATION]
"org.encog.engine.network.activation.ActivationLinear"
"org.encog.engine.network.activation.ActivationSigmoid"
"org.encog.engine.network.activation.ActivationSigmoid"
"org.encog.engine.network.activation.ActivationLinear"
