encog,BasicNetwork,java,3.4.1,1,1602682042568
[BASIC]
[BASIC:PARAMS]
[BASIC:NETWORK]
beginTraining=0
connectionLimit=0
contextTargetOffset=0,0,0,0
contextTargetSize=0,0,0,0
endTraining=3
hasContext=f
inputCount=5
layerCounts=2,8,8,6
layerFeedCounts=2,7,7,5
layerContextCount=0,0,0,0
layerIndex=0,2,10,18
output=0,0,0,0,0,0,0,0,0,1,0,0,0,0,0,0,0,1,0,0,0,0,0,1
outputCount=2
weightIndex=0,16,72,114
weights=-0.297186147,-0.5796948983,1.2449497821,-3.5920597417,0.3676139644,0.8436386871,0.7040264537,-0.2120359428,0.0087695978,0.9959054597,-1.2479903326,2.6598842897,0.5766757047,-0.2687317316,-0.1105578618,-0.4463976688,67.3432843791,2.1939529809,-0.2749065311,26.9449269521,-0.4341979846,6019.1550924165,-2.9248059294,0.2774388244,49.294813329,17.3209604962,-0.3615216048,2868.038684303,1.127516525,5897.8082068961,5.8713203526,-0.5281351169,-381.0775975324,-30.828401275,-1.2859623255,-234.9985309311,-1.0555115454,-6406.7101737484,11.1308303726,0.5072320677,-37.3716368554,-1.2348580062,-0.0128722432,-0.9596484982,-1.2299733609,-3815.9620446714,-1.1360526135,-0.3604255852,7.7908991407,0.5688734239,1.4786660465,4.5449417416,0.6099496266,369.1730306299,-0.5439418626,1.0980302716,-3.4537354715,-0.2069840998,-1.7698801334,-24.1184453742,-0.3901244296,-329.7282440534,-0.3025741554,0.6705161035,12.5543549304,-0.4881757624,1.1602428975,63.4511629915,3.041240698,4153.8941026103,-0.2458472739,0.9863827022,-6.3855930074,0.5868769932,-0.4236895661,0.0944584596,-0.2136988481,-0.1754939469,-4488.103864714,0.0836997249,57.0548230633,-5622.1477136289,2112.8563163762,-1.9133588996,-1.7119388824,0.7505815,0.7129039374,-0.8096684369,0.0856377794,-1.0209985126,-5.4140601449,-0.4443073033,-0.5997831292,-1.0612228309,0.275187598,-0.4699106476,-6101.8610686697,0.4230101647,561.6506115164,-7352.3263776441,2445.3931890664,-54.3415482011,-2484.5118875172,-0.7915228727,3.6276376001,-1888.5320907495,-0.9542980788,-1036.7672227803,4.6821418511,0.4122800223,-0.7816287471,-0.6250486215,-0.0801498951,-1.0706188662
biasActivation=0,1,1,1
[BASIC:ACTIVATION]
"org.encog.engine.network.activation.ActivationLinear"
"org.encog.engine.network.activation.ActivationSigmoid"
"org.encog.engine.network.activation.ActivationSigmoid"
"org.encog.engine.network.activation.ActivationLinear"
