encog,BasicNetwork,java,3.4.1,1,1602682042575
[BASIC]
[BASIC:PARAMS]
[BASIC:NETWORK]
beginTraining=0
connectionLimit=0
contextTargetOffset=0,0,0,0
contextTargetSize=0,0,0,0
endTraining=3
hasContext=f
inputCount=5
layerCounts=2,8,8,6
layerFeedCounts=2,7,7,5
layerContextCount=0,0,0,0
layerIndex=0,2,10,18
output=0,0,0,0,0,0,0,0,0,1,0,0,0,0,0,0,0,1,0,0,0,0,0,1
outputCount=2
weightIndex=0,16,72,114
weights=1.4774448481,0.3110356985,1.6343297609,0.6330734465,-0.6841671706,-2.079239926,-0.5980987487,0.1526508844,-1.415112289,0.6967347722,-1.4296887257,0.0709932071,-0.5932446005,3.1620119732,0.503133929,0.104161949,-0.6815789702,0.0799120091,-8.205943273,7.7171339261,-0.4206178499,0.8442219078,1.0289915178,-1.1232737876,0.3386303652,-0.3338356855,-0.3884038419,0.4100854826,0.5527922022,-0.3562229314,0.8213178217,-0.7539226982,-19.050595177,0.1029296174,2.4759769636,-5.3304163174,-0.6450362432,1.0828464414,-0.471753837,-0.1943795886,-3.533463824,-0.1534743919,-0.4856871867,5.1942396091,0.8183838071,0.4261029206,-0.7399535309,-0.3982031377,-1.3264766482,-0.0722048478,0.574521538,0.2856834214,0.2618931748,0.0540693807,-0.1541922011,0.3513455449,-1.0429273289,0.2229860362,-0.2169668324,-1.6842817906,0.5162571289,0.2284680128,-0.1317095284,0.1109289571,-1175.2471084891,-1.1895441609,1.5307830971,-2114.3105971907,-0.4227074779,-0.117057689,-321.8435929798,-0.7285044664,9.8514804634,4.5583112694,-1.7300393812,-11.6360300361,-0.8754125776,-3.9485999818,4652.022717058,2228.2673881754,1250.409300487,-1053.5452077147,-5639.108100677,0.224776174,-1.4555064744,0.5030104549,-0.6108433509,0.2322532398,-0.3274384671,1.4312801511,9.7923471296,0.1647886065,-0.1826374761,-1.4064636659,-1.6692259079,-3.7239007057,6.1187881327,2.5972178155,12.0009530345,0.1987695241,-7.2038508483,0.8050001143,923.6955876886,579.8406257057,-2.3512373502,-76.5446435732,-973.7716847938,0.0347977804,7.6758659407,0.4324823885,-2.7786623615,-0.2470776992,2.6547723074,-1.6262926101
biasActivation=0,1,1,1
[BASIC:ACTIVATION]
"org.encog.engine.network.activation.ActivationLinear"
"org.encog.engine.network.activation.ActivationSigmoid"
"org.encog.engine.network.activation.ActivationSigmoid"
"org.encog.engine.network.activation.ActivationLinear"
