encog,BasicNetwork,java,3.4.1,1,1602682023720
[BASIC]
[BASIC:PARAMS]
[BASIC:NETWORK]
beginTraining=0
connectionLimit=0
contextTargetOffset=0,0,0,0
contextTargetSize=0,0,0,0
endTraining=3
hasContext=f
inputCount=5
layerCounts=2,8,8,6
layerFeedCounts=2,7,7,5
layerContextCount=0,0,0,0
layerIndex=0,2,10,18
output=0,0,0,0,0,0,0,0,0,1,0,0,0,0,0,0,0,1,0,0,0,0,0,1
outputCount=2
weightIndex=0,16,72,114
weights=0.2495059781,0.2514803578,-0.6340218665,-0.3234302274,-1.6795255067,0.832268033,0.1561536494,0.3988866645,0.0805182857,0.0443116331,-0.7542664252,-0.1711667637,1.2872919733,-0.2837235719,-1.1119133549,1.0462381256,-2.2553736139,1.0776438331,0.6355761085,15.1759253692,-10.0485262754,0.8698895723,0.5873041055,0.7134558426,1.6033685345,0.5679690289,0.0521111464,3.3517899481,-2.6745508732,-0.2694619136,-0.7707574603,-0.1700264521,0.0598787742,-0.3910390314,0.8217974818,-23.937193212,-8.5478722383,-0.3106718792,0.4831089969,-0.3925039264,0.5962353568,-0.0739040147,0.4861913653,-1.0254690171,4.7243686577,-0.5484167543,0.1457431866,-0.0710101938,-4.0855963234,-0.095332124,2.4467763903,24.7950019218,-3.073685273,0.1964956846,0.7546338794,0.3693956748,-0.6653141791,0.5965242411,-0.0972568998,24.201241918,-1.6350053479,2.6115685733,1.8129192387,-0.8930175454,0.9891629312,0.0437219741,-0.4179584153,37.0234035823,0.5885746399,1.168329413,-0.4360040235,-1.0799009557,23.5462688135,2.0110135902,-1.4218049646,-11.616086801,-10.7973601941,-2.7384404093,3.56389957,-0.2687609904,8.3043075599,38.7188766945,4040.7569428724,0.0578165688,0.1868756503,-0.0957361417,0.4266189927,-0.0567760116,-2.2215081848,-0.4236360166,-8.5525230364,-0.8370985218,0.3258936965,0.2987079103,-2354.2392349229,0.3176123636,5.396911213,1.6401523982,-0.8425799259,-2.8121450368,-25.2993706948,-3.636001618,2.3079176343,13.8176680179,1.4801044171,7.4147958128,-9.4805301817,-2.1692002262,-1.2041471243,3.8751510781,-0.371807506,-6.1074931465,2.6144573126,2.445171448
biasActivation=0,1,1,1
[BASIC:ACTIVATION]
"org.encog.engine.network.activation.ActivationLinear"
"org.encog.engine.network.activation.ActivationSigmoid"
"org.encog.engine.network.activation.ActivationSigmoid"
"org.encog.engine.network.activation.ActivationLinear"
