encog,BasicNetwork,java,3.4.1,1,1602682042569
[BASIC]
[BASIC:PARAMS]
[BASIC:NETWORK]
beginTraining=0
connectionLimit=0
contextTargetOffset=0,0,0,0
contextTargetSize=0,0,0,0
endTraining=3
hasContext=f
inputCount=5
layerCounts=2,8,8,6
layerFeedCounts=2,7,7,5
layerContextCount=0,0,0,0
layerIndex=0,2,10,18
output=0,0,0,0,0,0,0,0,0,1,0,0,0,0,0,0,0,1,0,0,0,0,0,1
outputCount=2
weightIndex=0,16,72,114
weights=4.9419597456,0.9325117668,-0.0594901719,-0.9188752001,-1.3526833797,-67.673020993,-1.1057296978,0.2508956936,-3.648028225,-0.388465338,0.0779728565,0.9822963949,1.0360008396,12.135222671,-0.5003860575,0.2117293529,-0.0226952672,0.374679098,0.2107512081,-1.0164645647,0.6294567675,0.2961195365,-5.9403473449,-0.1515636569,-0.4519785731,0.5278552287,-1.1925361929,0.7270007496,1.1100467783,47.656871418,2213.5511115126,-0.4208258641,0.0133941214,-0.9312996377,-0.1503594001,222.8058143201,0.2263746356,-1656.8452740877,1963.539058607,-0.4330574926,-1.1892229922,0.7113957247,-1.6605400179,0.3431177565,-42.4568536209,47.0267050516,-61.7438322111,-0.6834719117,0.4353060427,-0.1103816736,0.6597981879,-1.0535535551,-0.599037266,2.2908935328,-5.6683302242,0.1453229447,89.6902405559,9.9544823166,3.2100392519,29.6001179706,27.1488613647,-235.1435074005,-7609.8472249214,3.3233908287,0.4546590482,0.8305600601,0.5925023884,-1.8701775645,0.6992563918,-9.9529917721,-0.3358970328,-0.5222530447,164.4787131741,-1221.8230599957,6101.1070267325,-915.4940237405,4283.8816050884,0.0947296526,-3971.3445971939,-3083.2294598441,1737.7969309172,-1825.4525024094,-0.2042308326,0.1853125989,-4225.1116010495,-1952.4585427311,55.7431651728,-402.1152476701,-0.220371979,1.9968656264,-4777.6799224833,-5652.198683345,-2470.2311334108,-3982.1392584615,-2.0888424151,0.4682805352,-3168.9755769537,-3377.4739051955,1308.6605739954,-2876.7335734902,-2.6663822858,-0.0678464329,1806.3254144776,3875.4482317243,876.0523717614,3208.0945772266,0.700279235,-19.7606921715,5.8941218626,0.0852625014,0.0011106555,-0.0647423687,-0.1915814981,-2.4635674425
biasActivation=0,1,1,1
[BASIC:ACTIVATION]
"org.encog.engine.network.activation.ActivationLinear"
"org.encog.engine.network.activation.ActivationSigmoid"
"org.encog.engine.network.activation.ActivationSigmoid"
"org.encog.engine.network.activation.ActivationLinear"
