encog,BasicNetwork,java,3.4.1,1,1602682042570
[BASIC]
[BASIC:PARAMS]
[BASIC:NETWORK]
beginTraining=0
connectionLimit=0
contextTargetOffset=0,0,0,0
contextTargetSize=0,0,0,0
endTraining=3
hasContext=f
inputCount=5
layerCounts=2,8,8,6
layerFeedCounts=2,7,7,5
layerContextCount=0,0,0,0
layerIndex=0,2,10,18
output=0,0,0,0,0,0,0,0,0,1,0,0,0,0,0,0,0,1,0,0,0,0,0,1
outputCount=2
weightIndex=0,16,72,114
weights=-1.1125875224,-0.9956085876,0.6740294181,1.1865669412,0.1419614609,-0.2059068163,0.9347466972,0.0011208695,1.5002868714,1.4115356669,0.221678799,-1.0020505261,-0.4209930383,0.0490684812,0.1911774517,-0.1250841826,0.4889103976,3.91825843,2.4525383519,-2.624132006,-0.8645870045,-0.6868383101,1.2581361807,-0.4295306203,-1.6977465794,-6.1980730792,-1.153303791,2.3124117736,-39.2274084775,-1.1063307923,462.4025835844,-0.2554506273,-1.0581861637,168.8005192556,513.4346801358,617.3441695844,-0.1335306411,73.807889305,-11.8360865065,0.3743570482,-0.7206922994,0.5565511715,-0.9974256925,0.0658990061,-2.3713015345,0.1381760169,26.978371533,0.031477108,-0.0845995838,14.0772362638,-303.5785992686,-952.7350692008,2.2454701728,-0.828367129,15.656314769,-1.2337415844,-1.3877872669,-15.0849008007,0.8631714632,1436.9450480691,-318.3280153841,-0.7944116961,-354.0194580124,-0.2544571611,0.977146977,-0.6915729813,-1.2368617399,-2655.1217322128,-0.3768728289,-2.2134363795,0.6868549729,-0.3067465061,3052.394384674,-3277.0715015705,-3081.8694314682,12.8514029912,-357.1233220461,-176.2700163359,-18.376109926,16.8199372115,3.5327952805,-0.1120026523,-0.443050423,0.2448836572,-12.0054302034,-25.6266288046,13.3030377012,-6.2604393007,3.9074060255,10.0918045419,-292.8025947201,-18.7297960045,0.4300486509,-9.4840650638,398.5160328082,-3.1056544863,41.9412157314,0.9375841564,0.1213102533,-44.2492000236,-531.9397395059,-0.3914881545,340.3844345429,21.461385503,1.5237507648,0.3701476403,-190.6480747813,0.5129219938,14.2624409204,-1699.7267082441,-2.2210971418,-2.5157187241,-1403.5494902511,-0.8038937729
biasActivation=0,1,1,1
[BASIC:ACTIVATION]
"org.encog.engine.network.activation.ActivationLinear"
"org.encog.engine.network.activation.ActivationSigmoid"
"org.encog.engine.network.activation.ActivationSigmoid"
"org.encog.engine.network.activation.ActivationLinear"
