encog,BasicNetwork,java,3.4.1,1,1602699169987
[BASIC]
[BASIC:PARAMS]
[BASIC:NETWORK]
beginTraining=0
connectionLimit=0
contextTargetOffset=0,0,0,0
contextTargetSize=0,0,0,0
endTraining=3
hasContext=f
inputCount=5
layerCounts=2,8,8,6
layerFeedCounts=2,7,7,5
layerContextCount=0,0,0,0
layerIndex=0,2,10,18
output=0,1,0,4.8786241651,0,1.8231621661,203.669357491,1.7983435933,1.5592553032,1,0,0,1.5693861843,0,2.489970744,1.6307094101,0.3359868697,1,1,0.2,0.5263459015,0.9999194336,0.0449121189,1
outputCount=2
weightIndex=0,16,72,114
weights=-0.8348586798,0.9018262651,-0.5748575505,-0.4348180457,-0.7998606381,0.6936411808,0.2857399717,0.4019329557,0.9749578893,0.0253835573,-0.7111374908,-0.1182387823,1.1275674406,0.1563720675,-1.134033452,1.024857531,3.0023718651,1.0787700245,0.6362288171,63.7216701462,-14.3744660786,6.8770791173,0.2654712623,0.7145820341,1.6397071499,-0.3421666441,-0.1316448914,27.2828067844,2.3502193786,-0.2266467342,-0.2459925744,-0.3145064185,-0.5852068917,0.7600859996,0.9129849525,0.8119581122,0.0350749528,-0.7366810297,-0.1514147519,-0.3364218552,-0.2991509491,-0.2360801019,0.0843425294,-0.7904430372,0.9304592361,-0.4985823937,-0.3386329968,0.3007991309,-0.5317322196,-0.4801779256,1.5160558473,-1.7764925617,-0.7225399771,124.4872558119,-0.5714982077,0.2786602016,-0.4613474259,-4.9603781677,0.3333348483,0.6425977325,0.9904139546,-0.3297951934,0.8556937698,-0.9405910295,-0.6190786703,0.90492351,0.9941571889,-0.195342109,0.1674247552,0.144527229,0.5462601908,-0.8370621602,0.4250663507,-0.935012499,-0.9620486243,0.1153180889,0.5351319315,-0.8720418234,0.3597771627,-0.2500412406,-0.9845278508,0.6533353631,0.2456981785,-0.4597280903,2.7751085915,0.9320163158,0.3391328251,-0.4934879569,0.371218812,-1.093850868,-5.3741029184,-0.4590674318,-0.2842794537,0.0909057059,-0.2050167504,-0.5829701497,7.5762109418,0.5318061139,0.9283892025,-2.095038466,-1.0974794469,-3.5370954686,1.8463038933,-0.7919540452,0.10066517,-0.7807845323,-0.2350991381,0.6810920539,0.6089343982,0.2936861454,0.3712529821,0.220690903,-0.3188341947,-0.7334458466
biasActivation=0,1,1,1
[BASIC:ACTIVATION]
"evoagentsimulation.simulationlearning.ActivationClippedLinearPositive"
"org.encog.engine.network.activation.ActivationReLU",0,0
"org.encog.engine.network.activation.ActivationReLU",0,0
"org.encog.engine.network.activation.ActivationLinear"
