encog,BasicNetwork,java,3.4.1,1,1602701932926
[BASIC]
[BASIC:PARAMS]
[BASIC:NETWORK]
beginTraining=0
connectionLimit=0
contextTargetOffset=0,0,0,0
contextTargetSize=0,0,0,0
endTraining=3
hasContext=f
inputCount=5
layerCounts=2,8,8,6
layerFeedCounts=2,7,7,5
layerContextCount=0,0,0,0
layerIndex=0,2,10,18
output=1,0,0,1.0725272694,0,62.9662769764,0,5.215806307,0,1,0.99901695,1.2945516564,42.7998535396,0,0.836215927,0,0,1,0.32,0.2,0.4076150513,0.2973682785,0.6997917175,1
outputCount=2
weightIndex=0,16,72,114
weights=-0.7944911185,-0.9459718175,-0.3927546238,0.6135546769,-0.3224959401,1.6064844204,0.0006957743,0.0502479015,0.4811977089,0.9303190901,0.7194576872,-0.4591911328,-0.256869891,-0.8923637037,0.7777077486,0.6128845452,-0.4164778818,-0.5494860776,-0.5349664925,0.8189674001,0.6136264772,0.1959262157,-0.9814431349,0.716902777,0.4130144272,-0.8129661677,0.0174130303,-0.8050788797,0.8674386467,0.9087395125,-0.6957390586,0.2417043964,-1.2779851778,1.9794227369,-0.7645810287,11.5320435819,6.4973241274,1432.3205091771,-0.8858811428,-0.2491500786,0.0817283173,27.4742664251,0.6607462241,-1.2583095196,-1.2701498612,-9.7351546613,-0.1695836235,0.1000498189,-0.3434829271,-38.7374026466,-1.1939251055,0.588180804,1.2633316169,5.5668309938,-0.1035435822,0.2786602016,-0.4613474259,-4.9603781677,0.3333348483,-12.8222924163,-1.8703421457,-0.4563848644,3.0029683987,-0.604506817,-0.073532382,-20.1697819018,-0.8205656565,-0.0103548675,0.8532529238,-0.0777131211,0.924902536,0.6593525481,0.6911218017,-0.5816021602,0.583251036,0.2217214311,-0.4673948603,0.9175826363,-9.6301875585,0.5309167046,0.353702568,1.603489618,1.3676236286,2.6919752085,83.4301692694,79.9475610362,0.6434198018,0.1951905241,-0.8845731326,0.4113930523,-0.2829214008,-0.5139854315,0.8801723682,0.2535185166,0.2552770244,-0.8633219104,0.3656372761,-0.9895585527,0.5469425297,0.2206494613,0.0400701242,0.6005268105,-489.2525094605,-40.6634784746,0.5142116139,273.9275668114,-34.4319830884,-0.8771404759,3.5199774808,0.8725472826,0.0872429878,-0.9007753927,-0.6292631534,-1.0657143556
biasActivation=0,1,1,1
[BASIC:ACTIVATION]
"evoagentsimulation.simulationlearning.ActivationClippedLinearPositive"
"org.encog.engine.network.activation.ActivationReLU",0,0
"org.encog.engine.network.activation.ActivationReLU",0,0
"org.encog.engine.network.activation.ActivationLinear"
