encog,BasicNetwork,java,3.4.0,1,1565271870762
[BASIC]
[BASIC:PARAMS]
[BASIC:NETWORK]
beginTraining=0
connectionLimit=0
contextTargetOffset=0,0,0,0
contextTargetSize=0,0,0,0
endTraining=3
hasContext=f
inputCount=2
layerCounts=2,5,5,3
layerFeedCounts=2,4,4,2
layerContextCount=0,0,0,0
layerIndex=0,2,7,12
output=0.7814056714,0.4788020214,0.6343559389,0.4136205311,0.6390977105,0.3040965274,1,0.1403821664,0.4551781307,0.5693828682,0.4899341489,1,0.5095086913,0,1
outputCount=2
weightIndex=0,10,30,42
weights=-0.5675663091,0.3921622971,0.3888287098,0.0374786542,0.7193416858,-1.3715000375,0.5568053766,0.0557856446,1.1587493366,0.7304909527,0.7220483481,-0.0056265495,-0.2832930143,0.0073354732,0.6098565263,0.1202858374,-0.3187096149,0.3060229148,1.0555152167,-0.9122116698,0.4398967451,-0.0201503803,0.2739022292,-0.2736698194,0.4969934062,-0.3836257232,-1.6819406322,-0.3408449677,-0.5879196099,0.4736841955,-1.3683857922,0.0126505117,-1.114914993,-1.7237179758,0.0751103383,0.6984792326,-0.1851358211,-0.0273805474,0.3736620268,-0.0906148809,0.0391916148,0.0059002242
biasActivation=0,1,1,1
[BASIC:ACTIVATION]
"org.encog.engine.network.activation.ActivationLinear"
"org.encog.engine.network.activation.ActivationSigmoid"
"org.encog.engine.network.activation.ActivationSigmoid"
"org.encog.engine.network.activation.ActivationLinear"
