encog,BasicNetwork,java,3.4.0,1,1584029615546
[BASIC]
[BASIC:PARAMS]
[BASIC:NETWORK]
beginTraining=0
connectionLimit=0
contextTargetOffset=0,0,0,0
contextTargetSize=0,0,0,0
endTraining=3
hasContext=f
inputCount=2
layerCounts=3,6,6,3
layerFeedCounts=3,5,5,2
layerContextCount=0,0,0,0
layerIndex=0,3,9,15
output=1,0,1,0.0794797315,1.1562687061,0,0,0.5471177196,1,0,0.2979541353,0,0,0.2453627438,1,0.2,0.2,1
outputCount=3
weightIndex=0,18,48,63
weights=-0.3495922162,0.7901003522,-0.0474746058,0.0878841573,-0.0662445716,0.1743998241,-0.342015644,-1.1777792493,0.3900748647,-0.0315305875,1.1590106666,0.3223978831,-0.1567804634,-0.1587283778,-0.6728636834,0.2488618114,0.8306051814,0.8014711386,0.5690125922,0.4999044153,0.7534748508,-0.1773866882,-0.0106718234,-0.0668503884,-0.6226596538,-1.233496841,-0.2723994615,-0.2760498366,0.0527683591,1.5108468014,0.7911532785,-0.7465600251,-0.0599691163,-0.3870111309,-0.9088686512,-0.3469171849,0.9913501527,0.722749752,-0.6991209982,-0.3965450504,0.5005545419,-0.8294262835,-0.2616467938,0.7096725467,-0.7972404741,0.0462999702,0.961190866,0.0998274214,-0.039353561,-0.7074807093,0.0205482294,1.4376225025,0.0556452486,-0.0006994149,-0.0654886317,-0.6469280899,-0.5572589534,0.8994177581,0.0505262123,-0.8471363752,-0.9066160045,-0.2354995635,0.4737858574
biasActivation=0,1,1,1
[BASIC:ACTIVATION]
"evoagentsimulation.simulationlearning.ActivationClippedLinearPositive"
"org.encog.engine.network.activation.ActivationReLU",0,0
"org.encog.engine.network.activation.ActivationReLU",0,0
"org.encog.engine.network.activation.ActivationLinear"
