encog,BasicNetwork,java,3.4.0,1,1579554309288
[BASIC]
[BASIC:PARAMS]
[BASIC:NETWORK]
beginTraining=0
connectionLimit=0
contextTargetOffset=0,0,0,0
contextTargetSize=0,0,0,0
endTraining=3
hasContext=f
inputCount=4
layerCounts=4,7,7,5
layerFeedCounts=4,6,6,4
layerContextCount=0,0,0,0
layerIndex=0,4,11,18
output=0.1163148704,0,0.0001262507,0,0.0970112284,0,0.5606491798,0,0.2267409467,1.9219504423,1,0.35259063,0.8192464764,0,0,0,0.546862184,1,0.5031297374,0.5031320225,0.5031371088,0.5000000179,1
outputCount=4
weightIndex=0,28,70,100
weights=-0.1152271902,-0.7529950658,-0.3171046383,0.5940539994,0.0048907908,0.0785840392,0.1531340856,0.699247864,1.6979592857,-0.4646147437,-0.0251905822,0.1141094292,-0.3246383621,0.6574972901,-0.5471993036,0.3933410946,0.1249269898,0.078828217,-0.9774551419,0.0785428909,0.0538440733,-1.7229557462,0.0367995898,0.7585286983,1.0495528374,-0.4022077913,-1.8514235981,0.5868696041,1.5641737049,0.1367804094,-0.0766486009,-0.0249165108,-1.6852448314,-1.0518764951,0.0086728454,0.1667951469,-0.7824789103,0.0707023368,-0.8779481058,0.0273392552,-0.3499406187,0.0925007984,-0.9954163882,-0.1885335101,0.2621469005,0.0863291403,-1.4002662821,0.7496444086,0.6561269066,-0.0220738696,-0.5298271451,0.0793535745,0.9391794348,0.3569801507,0.4035226883,0.1259425497,0.3769273987,0.9298801922,-0.4814221885,-0.2084063285,-0.5918025534,-1.3075369766,0.0470813334,-0.468892537,1.0137491393,-0.118862008,0.4187953974,-0.1496472626,0.544139884,0.9591976216,-1.0794978584,0.4544782872,-0.0472815391,-0.0282426824,0.7049659626,0.330565476,0.0087772785,0.5407004701,0.8225175108,-0.0347922159,0.2674062368,-0.1326434453,-0.5899812065,-0.0025293111,0.0171399392,-0.2622231068,-0.1748056401,-0.5950106273,1.4515185675,-1.0079333175,0.3516405541,-0.6638680316,-0.4360839376,0.0530885239,-0.9249308137,1.1925932306,0.1840894487,0.1618931384,0.323718105,-0.3891017355
biasActivation=0,1,1,1
[BASIC:ACTIVATION]
"evoagentsimulation.simulationlearning.ActivationClippedLinearPositive"
"org.encog.engine.network.activation.ActivationReLU",0,0
"org.encog.engine.network.activation.ActivationReLU",0,0
"org.encog.engine.network.activation.ActivationLinear"
