encog,BasicNetwork,java,3.4.0,1,1580625151794
[BASIC]
[BASIC:PARAMS]
[BASIC:NETWORK]
beginTraining=0
connectionLimit=0
contextTargetOffset=0,0,0,0
contextTargetSize=0,0,0,0
endTraining=3
hasContext=f
inputCount=15
layerCounts=2,18,18,16
layerFeedCounts=2,17,17,15
layerContextCount=0,0,0,0
layerIndex=0,2,20,38
output=0.5571586473,0,1.4669788084,0,3.2205430085,3.352740367,0,0,4.2241767343,0,0,0,1.7340835283,0,0,0.8024501715,1.4147604377,0.1007289569,0,1,1.8949315829,0.8264212413,2.3777446844,0,1.6812009904,2.43139624,0,0.9068822987,0.9228762483,0,0,1.7623431569,1.2299226832,1.522326325,1.1947416537,2.8715317842,0,1,1,1,1,1,1,1,0.1331722339,0.0973424514,0.1160548528,1,1,1,1,0.5,1,1
outputCount=2
weightIndex=0,36,342,614
weights=-0.2825586903,0.5314946135,-0.4945918129,-0.3871573106,0.4042776687,0.5046981324,0.8125172877,0.5295097617,0.7100864061,-0.8936206295,-0.2910805742,0.1857055482,0.5456285797,-0.0662689508,0.1674368801,0.2972995536,0.905410462,0.7214475963,-0.9540919396,-0.0620772483,0.0001594952,0.4048754355,-0.3077115097,-0.596044394,-0.8973795859,0.484102167,-0.4529555531,0.7443333944,0.7951472397,-0.2614926298,-0.2179568292,0.991649934,0.0325188415,0.3248267021,0.4308257856,0.4219600777,-0.9136994807,0.1445241749,-0.1025498048,-0.7756739053,-0.3825481498,0.4727031852,0.0625739339,0.6227718234,0.4804339455,0.2314663676,0.0932972211,0.656793993,-0.5779132793,-0.7215676126,0.1170551139,0.5273224988,0.5077570276,0.8061056659,-0.5503973022,0.9476003076,-0.8711970864,0.1179427576,-0.7535887624,0.2569069044,0.7964970817,0.1761192994,-0.5336972955,-0.9009701872,-0.3662968196,0.4665771806,0.3359083791,-0.0537378933,-0.0421096857,-0.4808297957,0.7335607068,-0.2026829614,-0.0223482214,-0.9145899655,-0.6615825528,-0.3616272461,0.7037223177,0.907972899,0.7650178837,-0.865627959,0.236997227,0.3748128663,0.7724142324,0.8392770348,0.2463817526,0.5399109662,-0.3455603013,-0.1305875962,-0.5607395484,0.9511617402,-0.2654623876,0.4238090233,0.0477755484,-0.0588882648,0.3899691335,-0.0934384775,-0.6246407133,0.3235729537,0.334870091,-0.0289916426,-0.1719883561,-0.1382703225,0.6643056614,0.5525748424,1.3666754102,-0.2789031969,0.6042341594,0.1145051069,-0.00874995,-0.443675494,-0.0369228758,1.5757957941,0.3524678402,0.0369546171,0.0864725839,-0.222945404,-1.0510347702,-0.0899627048,1.1380400537,-0.0612367036,-0.3722398099,-0.0040506527,-0.2980532064,-1.4445345673,0.4994777069,0.1774171071,-1.114474451,-0.7671287317,-0.1621379526,-0.1225376519,-0.5056143774,-0.0532961921,-0.0758012574,-1.1117178716,1.35986408,0.3392153448,-0.4432931658,1.2344498991,-0.3384249685,0.0064712713,1.004942315,-0.4819585517,0.1028499069,-1.1983586449,-0.0831094508,0.8383586949,0.012169616,0.000019606,-0.1076220084,-0.7248784235,0.1461319256,1.0779984765,1.2950451266,0.7908819279,0.4768164512,0.3664429791,0.2099974365,0.271799973,-0.6551379502,1.0863035609,-0.0731169419,-0.223975185,-0.2036441519,-0.2076291799,0.5476829522,-1.0372451712,-0.139341989,0.2041635948,-0.1485657937,0.5290587846,-0.043865143,-0.0607887209,-0.5467567886,-0.2252057616,0.015727862,-1.4732181617,-0.0223758511,0.0615997614,0.7825764197,-0.8121425674,-0.6873713268,0.2415827102,-0.0711844511,-0.2769229234,0.3664157981,-0.3458854859,0.0570858473,0.0961508501,2.6447498325,-0.7560725616,1.6327425638,-0.3457154763,-0.312011585,-0.1948628835,0.8057303522,-0.2532439162,0.4677540481,-0.9403622649,-1.7571807664,-1.450918195,0.3190057636,-1.4495075965,-0.4412593016,0.0076408058,0.0041069529,-0.7841206743,-0.3171826531,-0.2483117421,0.2012263904,-0.1983497512,0.2858197174,-0.2977970956,0.3614448011,-0.7721968815,-0.0881321482,-0.0993678522,0.0487349448,-0.0888702051,0.5594594263,-0.2365882881,0.1430264517,-0.5845213031,0.4301402052,0.3411661553,0.0025226053,0.0513352168,0.3604759993,0.0109072103,1.1057606047,-0.6048001754,-0.1060688981,0.1936309858,0.6183348168,0.3661361087,0.9675408476,-0.63455945,0.0302166619,-0.0111071253,-1.5585931778,-0.1031199598,0.5209411667,-1.0163113758,1.1457749538,0.436712932,0.8934899961,-0.1717025121,0.129196112,-0.3992328574,-0.5637173807,-0.0509289289,0.1512066093,0.6104289884,0.4316935805,-0.6961389814,-0.5663013702,0.8986733509,-0.579048086,0.1548008775,0.6709241632,-0.6345691256,-0.8406762277,-0.3230167852,0.0447209713,0.0115702966,0.5183244625,-0.088192357,-0.6005257436,-0.7122416683,-0.1946016888,-0.9756205801,0.309298453,0.8539844503,0.7277329234,-0.9802761514,-0.7875487279,-0.6982736273,-0.821402187,0.8765053752,-0.5516402585,0.9788832457,-0.9837485253,0.4287085297,0.8301660807,-0.5178407185,0.6768176021,-0.1139010587,-0.9536911966,-0.9535479095,0.1356244088,-0.9983716946,0.3473020928,-0.3611980023,-0.7225088751,0.4991981411,-0.7089501552,0.7393350399,0.3381941597,0.3590896956,0.9720741602,-0.5582671093,0.9568713816,0.2903797052,0.2018491416,-0.3667368797,0.0846899926,0.35224103,0.8440386147,-0.2669323595,-0.273363,0.2066671881,-0.1754254928,-0.2377354074,0.4418080025,0.252851836,0.830193032,0.3350726616,0.441954408,-0.062727637,0.5976997417,-0.8070429561,-0.0274998643,0.2464100263,0.8333760848,-0.8213113762,0.1604596938,-0.1818463267,-0.3365378444,-0.8275760745,-0.8095207525,0.1511678358,0.7164289258,-0.3325394042,0.5905746371,-0.5680301165,0.5595431195,0.5885987758,0.2670084134,-0.0176345866,-0.6704753516,-0.0266382499,0.7409206071,0.0991404092,0.2215424657,0.3103804927,-0.0043724948,0.1862221289,-0.6362764916,0.9451274428,-0.3804889306,0.0015910657,0.9991945294,0.0081879907,-0.3558212273,0.7517892189,0.2798947155,-0.2459406228,0.3558757318,-0.1100937703,0.6190681673,0.0187053381,-0.7810890864,0.6977687017,-0.2791660244,0.3878226024,0.0022906183,0.2055712476,-0.0561720863,0.935052798,0.2721270362,-0.1950120248,-0.7645972684,-0.5817264382,-0.0165068543,0.2093142622,0.3131651839,-0.5789058176,-0.0532325442,-0.1434586202,0.2587887335,-0.8313941484,0.5832592044,-0.3625968159,-0.3354262145,0.7693499726,0.5042711453,0.9942954819,0.9991162739,-0.9829627573,-0.3412637739,0.9750441478,0.0489753444,-0.3163123988,-0.7576369927,0.8748273298,-0.2355161116,-0.7553308749,0.7443231707,0.0666354538,-0.7116423261,0.9901395705,-0.1763955385,-0.9712990079,0.7688807419,0.7342293502,-0.484013594,0.3813275423,0.210148105,0.7759798835,0.0573302947,-0.8053283191,-0.4431761349,0.4801860333,0.9344608766,0.0235201127,0.2944926488,0.9735965274,-0.8566084385,-0.2323645547,0.9285827964,-0.0210479203,0.7790328448,-0.3365651362,0.3307667536,0.8928573242,0.1432629488,0.9001208456,-0.7471866048,0.9845157546,-0.7763039721,0.5382807317,-0.5705931399,0.389403908,-0.9161593958,-0.7897317527,-0.1806378542,0.6981892423,0.2914665346,0.9008278282,0.7775392504,0.7356090036,-0.4299862196,0.0665448613,0.3005881888,0.1033631824,0.8058163361,0.5119790665,-0.5723523335,-0.2858320418,-0.6562043678,-0.9132525224,-0.4977056489,-0.4404517308,-0.4705311189,0.3054169231,0.6157272866,0.6925914837,-0.8525374041,0.5624480253,-0.7555964729,0.3581831749,-0.7041057367,0.8351854747,-0.8733376741,-0.669527634,0.5444037039,0.8274100604,-0.04203515,0.4309550847,-0.583511743,0.1076728332,0.0341502744,0.1664532874,-0.6677560649,-0.5319674666,0.8891155795,0.7293337396,0.3845633533,-0.4054236398,-0.4949020748,-0.8602239888,-0.5569134594,0.0628115473,0.4335838444,-0.2907904208,0.9577668206,0.4576049027,0.7447633134,0.4397840401,0.5061511318,-0.9650130096,-0.2342868917,0.8388832101,0.7448225007,-0.7663165721,-0.6031294866,-0.3467121533,-0.870427609,0.1828721794,-0.4279348019,-0.8858912725,-0.3976207792,0.707230103,-0.6994739454,-0.9890509772,-0.0001361291,-0.2828212439,0.056877091,0.5077849757,-0.1461841731,-0.7429122438,0.2946594967,0.9944381046,0.3591137304,0.4415135575,0.9606041838,-0.7002133351,-0.4564534314,-0.6942953354,0.2108910422,0.6154416908,0.3003467705,-0.8335074436,0.5387510654,0.9574780839,0.172202423,0.2235066193,-0.3721969443,-0.6072960591,0.8314993831,0.3048643941,-0.9504773982,0.8714172728,-0.6940756274,0.6512246168,0.1306426225,0.136841526,-0.1633018181,0.6084924317,0.4371898075,0.179153678,-0.3006026157,0.1252559215,0.2267221587,0.3221832387,0.112778099,-0.3142256315,-0.2386177899,0.8943467556,0.2456738807,-0.6725337426,-0.9368464752,0.9015364119,0.8422153761,0.5947558945,0.753368473,0.7809954955,0.634925559,-0.1312889886,-0.8267968254,-0.3676570943,-0.5582660653,-0.3808295792,-0.3135340556,0.5365228117,0.2626159267,-0.3001100681,0.6868513995,0.1419021548,-0.4435358268,-0.1567128201,0.1266830019,0.2899435317,0.8405659889,0.894505221,0.6507585957,0.2866487771,0.0337072411,-0.003718386,-0.6079893971,0.5145272108,0.4971470365,-0.1879857388,-0.0433944563,-0.051477567,-0.5837206914,0.8664576967,0.9723295799,0.6911016331,0.0703146786,-0.5113542472,-0.1693744897,-0.5034671846,0.0197236961,0.5050405394,0.236228148,0.7457410631,-0.4113697075,0.8612788109,-0.7009517348,-0.7636946867,-0.907861036,-0.1494018247,0.3341962974,0.7593006759,-0.4775720274,0.6938592086,-0.9254499216,-0.2073785533,-0.8981193688,0.0983802947,0.0055818132,0.6669721141,-0.3313408639,-0.2336178233
biasActivation=0,1,1,1
[BASIC:ACTIVATION]
"evoagentsimulation.simulationlearning.ActivationClippedLinearPositive"
"org.encog.engine.network.activation.ActivationReLU",0,0
"org.encog.engine.network.activation.ActivationReLU",0,0
"org.encog.engine.network.activation.ActivationLinear"
