encog,BasicNetwork,java,3.4.0,1,1580552401188
[BASIC]
[BASIC:PARAMS]
[BASIC:NETWORK]
beginTraining=0
connectionLimit=0
contextTargetOffset=0,0,0,0
contextTargetSize=0,0,0,0
endTraining=3
hasContext=f
inputCount=4
layerCounts=4,7,7,5
layerFeedCounts=4,6,6,4
layerContextCount=0,0,0,0
layerIndex=0,4,11,18
output=0.125231899,0,0.0011840496,0,0.436276792,1.2819726298,0.0630862338,0,0,0,1,0,1.0716495069,0.2986782878,0.2266125321,0.8035490571,0,1,0.5439075396,0.4999928671,1,0.5,1
outputCount=4
weightIndex=0,28,70,100
weights=-0.541434148,-0.3889991019,-0.8585712703,1.4562471761,-1.0663334495,-0.7032364267,0.9142972817,-0.6622723624,0.4650235671,-0.6581400252,-0.3990554756,-0.7317698352,0.6791001259,-0.2732197053,0.5337926321,-0.5156799916,-0.533829515,-0.1167463673,-0.2181000956,0.273469408,0.463067641,0.1386249801,-1.3353983196,-0.5508142657,0.1091928188,0.0390124832,1.2720796058,-0.6311928987,0.1172779799,-0.6488672496,0.4610369542,-0.0551760089,1.2514932398,0.0497360135,0.0008006942,-0.0723363337,2.0697851352,-1.8096888694,-0.2688442011,-0.982205061,-0.0322775977,0.4545765991,0.4986332238,0.0924226055,0.4625116191,-0.2876348286,-0.4922039325,0.894342307,0.2865910784,-0.5276530185,-0.5802940115,-0.8170424814,-0.2689540631,-0.1301124992,0.1016955129,-0.8886926019,-0.3823729482,-0.2800345199,0.0825547854,0.0093999824,-0.732225323,0.287217128,0.4507974361,0.8543422529,-0.588579672,-0.7748169711,-1.2391230197,0.0102737972,-0.3011765653,0.7075268806,0.406690588,0.6743469585,-0.5943630175,0.889362284,-0.7642270136,-1.101771791,0.4098118132,0.1844801851,-0.1446570747,1.3538568597,0.4923012166,0.128837248,-0.1999718522,0.0095071265,0.1617125283,-0.4086917,0.1611762819,0.225981672,0.2519551711,0.0163567802,2.2283623684,0.1662337316,0.0518694798,0.4335774466,-0.7602479191,0.4301318268,-1.1934719584,-0.4396903023,-0.1719217267,0.1085413366
biasActivation=0,1,1,1
[BASIC:ACTIVATION]
"evoagentsimulation.simulationlearning.ActivationClippedLinearPositive"
"org.encog.engine.network.activation.ActivationReLU",0,0
"org.encog.engine.network.activation.ActivationReLU",0,0
"org.encog.engine.network.activation.ActivationLinear"
