encog,BasicNetwork,java,3.4.0,1,1578415594074
[BASIC]
[BASIC:PARAMS]
[BASIC:NETWORK]
beginTraining=0
connectionLimit=0
contextTargetOffset=0,0,0,0
contextTargetSize=0,0,0,0
endTraining=3
hasContext=f
inputCount=16
layerCounts=2,19,19,17
layerFeedCounts=2,18,18,16
layerContextCount=0,0,0,0
layerIndex=0,2,21,40
output=0,1,0,2.2883034556,0,0,0.144545215,1.2118299054,0.1692016002,0,0,0,2.4158498715,0,2.4531518241,0,0,0.4400659625,0.2579331284,0,1,1.9605868782,0,0,0,0,1.2244456557,0,0,0,0.9463350721,0,1.3691613747,0,0,0,2.5554433289,0.3440832349,0,1,1,1,1,1,1,1,0.2829601765,1,1,1,1,1,1,0.5,1,0.0054854109,1
outputCount=2
weightIndex=0,38,380,686
weights=0.0292553937,0.8776518023,0.3444028287,0.0599289912,-0.4890090994,1.2835990627,-0.5192492173,-0.5719370339,0.5508790213,-1.7375118649,-0.5401748429,0.5841719023,-0.8615507012,0.3356220342,0.2394587836,-1.50192481,-0.1553413327,0.1377416106,-0.0109652021,-1.2937921438,0.2237788784,0.5249029233,-0.0496013668,-0.1278986156,-0.2303589656,0.0634233895,0.673914612,-0.0384596636,0.5587980955,0.7750206203,-0.3076423191,-0.1609609301,0.9878767774,-0.0250931243,-0.4287410333,0.2871336902,1.1272710387,-0.1221507379,-1.1008968469,-0.7536399792,0.654922751,0.0727008695,-0.16352702,0.2669403741,-0.9490614535,0.3824038976,0.3066975979,0.9937786391,-0.8491109908,-0.6988159353,-0.8998995719,-0.0505846951,-0.3771250197,0.1710871507,0.0073604162,0.8348778193,0.5245640905,0.5640807079,-0.1340250477,-0.1085952576,0.1865976404,-1.4416403933,0.4162026352,-0.6533496202,0.0860991419,0.1478249204,1.3925185042,-0.4788496937,-0.6277937073,-0.7737995136,0.1087449141,0.0085599089,0.077009843,-0.0343920041,0.7459365545,0.0295579314,-0.1551946565,0.359628068,-0.4378354355,0.8341243754,0.0023655563,-1.5134625732,-0.9357248879,-0.0163031584,0.212538276,0.2387611121,0.0195979225,0.4669928354,0.1919526956,-0.2802048881,1.204819887,0.6414069524,0.0129472607,-0.5152048599,-1.3509564236,-0.0223824688,-0.3192638418,1.06574167,-0.7795689606,-0.0296680242,0.0261034667,0.7559552747,0.4926211487,0.0641511708,-0.610077678,0.77810281,-0.6919676766,0.01254634,1.0649468616,-0.4094350929,-0.8816744299,0.2656276597,-0.5598065005,-0.000414635,0.236101993,1.4539328488,-0.5714511928,-0.6987058943,0.4263255385,0.1452387072,0.1556605396,0.8787859271,-0.0103632759,0.2753187016,-0.408329098,-0.7126545608,1.6486734364,0.6917470025,-0.2046329268,0.3497177418,0.5219894039,-0.0934518992,-0.8542864769,-0.7699856952,0.4356291762,-0.2802415211,0.0259759244,1.280411043,0.8278245373,0.8126331378,1.2463708487,0.4225913787,0.7120450329,-1.0652474812,0.2458062257,-0.0437218662,0.0551574442,-0.0413484961,-0.0970348275,-0.0273237763,-0.3181803802,0.9548146761,0.225329754,-0.8106269588,1.1620557482,-0.4066897792,-0.2539559002,-0.0154147982,0.6528123827,0.9573742078,-0.4578598508,-1.0967281451,-1.4751262429,0.2518184618,0.0307601599,-0.5841017344,0.1239201222,0.2891417081,-1.1177596822,0.4934340946,0.0851069392,-0.0409933246,0.7642335736,0.4173377631,0.0594474606,0.8684144617,-0.8752450011,-0.0657487278,-1.4365091089,-0.6401339808,-0.3010689344,-0.0487664542,-0.6832964908,0.2322251329,0.1204767455,-0.5052489636,-0.1518922629,-0.6109917669,-0.2412795928,0.3714937853,-0.1163318203,-0.2864535678,0.0891755388,0.49699607,0.2425674669,-0.0497578891,0.1897060199,-0.5030756521,-0.0100126745,-0.3056178976,-0.0746096197,-0.0869225915,0.5205753869,0.6246558647,-1.0299142031,-0.0397361459,-0.7699820001,0.5179532301,0.1244650716,-0.5175410506,0.6455636566,0.6941227809,-0.0205938401,0.0073842199,-1.521060937,-1.1872981176,0.0053832713,0.2524959885,0.0139951525,0.5696002822,-0.6282799636,1.4960621298,-1.7037349997,-0.1998805687,-0.6990263116,0.6314614396,0.0526574951,0.2621457751,0.3815795194,-1.1874165903,1.5262050825,-0.031927765,-0.221842283,0.1110000469,0.8160229617,0.0155402778,-0.1862234165,-1.6436753103,-0.0111978863,0.1636857906,0.1061038448,0.0206714921,0.4795306262,1.2058536257,-0.3174567167,0.2714450575,-0.1090871907,-0.3767444926,-0.6502691875,-0.2119914712,-0.5990862135,-0.6309327889,0.5310000993,-0.9697071802,0.0916906624,0.3500471691,0.1878683684,0.643609404,-0.2506981521,-1.5825302005,-1.0025951408,0.961977208,-0.2531681623,0.0453440314,0.2929559629,-0.2228312717,-0.001123696,1.260667976,0.2885393393,-0.8371581381,-0.3178775352,0.3786011086,0.1377964855,-0.0801157858,-0.0001764514,-0.0605901364,0.3052842141,0.5276167372,0.7312316018,-0.3566982268,0.1552808952,1.0149448251,0.8732329591,0.0658597787,-1.5673742448,0.3660703137,0.2940480938,0.4460457961,0.2188511676,1.6197231249,-0.2517140152,0.2221611217,0.1008255271,-0.2667753058,0.9585464445,0.0029486405,-1.4666863467,0.7614738977,0.0334093007,0.4726229509,-0.073757931,-0.0672429188,-0.9866457193,-0.7791431567,-0.6583296958,-0.2761619982,0.2200217423,0.1013390085,0.014457257,0.6463906628,-1.6513586499,-0.6112021994,0.3763918241,-0.1050210264,0.7222698413,-0.0389472535,0.9135761419,0.735528554,-0.0731198786,-0.0450292782,-0.1941058239,0.3981754442,-1.1365595997,-0.258594374,-0.0219785102,-0.53772793,0.3913040182,0.6838841416,-0.3148222347,-0.1495665424,0.6805569225,0.2414862723,0.2939980709,-0.7379030218,-0.2065962382,-0.380925308,0.9149405027,-0.0949677126,0.6195215416,-0.2171340057,0.0745928265,-0.171251699,0.4833400036,0.5778341108,-0.150806045,-0.3007033324,0.7494645974,-1.1865019998,0.409326873,0.4133793743,-0.0812869789,0.1252027829,-0.1386141607,0.3096636619,0.606564487,0.090651731,-0.4634066503,0.0380075948,0.2993271114,0.8016157277,0.0205272738,-0.3598428843,-1.0662864698,0.3363121733,-0.1918842417,1.1000992654,-0.8156100087,0.4241155098,-0.1578292669,0.8296128328,-0.6890867825,0.0069704383,-1.1280390371,0.3420612479,0.6147094454,0.3809272024,1.1048660129,0.0910451629,-0.2921871229,0.5015633123,1.1333150797,0.0860156088,0.6453556964,0.1083246814,-1.3747719747,1.1738957585,0.066007198,-0.1891695721,0.1403116608,0.3737641647,0.0432036169,-0.049020958,-0.4160550879,0.3192144773,0.1185968075,-0.0423258722,-0.011231076,0.0815604222,-1.2974483367,0.54348788,-0.0553376433,-0.2316447941,-0.753706366,0.6128546566,0.2396087731,-0.1818048579,-0.1297941719,-0.1619521926,0.1026688966,0.1006808185,0.0313918919,-0.0705782339,-0.0231277334,-0.153626382,0.0392287652,0.3353129107,-0.1947616348,-0.3490101645,-1.1285024896,-0.003481024,-0.0388578914,-0.1499773385,-0.3477187,0.5673527725,-0.4727072568,0.1051670688,0.1145464547,0.0000083884,0.0994282446,-0.7255487283,0.7220481316,-0.4838827194,-0.7746213192,0.9601176882,0.9939016308,-0.9876705712,-0.5680360462,-0.9769121458,-0.2211347041,-0.0981042436,-0.062121437,-0.4807716832,-0.0562291715,0.3792296878,-0.2441940882,0.1380590119,0.4586835643,0.5274693872,-0.6490749185,-0.322711392,0.6770196217,-0.6346763377,-0.1192271622,-0.7971237731,-0.9069584747,0.5620028292,0.5255374668,0.6458154639,-0.8282544986,-0.5855937823,0.3012281474,0.4734894338,-0.7006701833,0.7545067748,0.5792498197,-0.2497372803,-0.4179728888,0.0530924977,-0.2493253692,-0.7235852863,0.1865122122,0.0414933058,0.1314346482,0.2802577415,-0.9392424997,0.5883011605,0.6729878671,0.0377156892,0.5777249208,0.6380984128,-0.3673815851,0.9173205763,-0.3783912107,-0.8854395228,0.1168504378,0.9862907626,0.2258202877,0.7185248819,-0.932578636,0.9651611664,-0.9247580706,-0.7121340591,-0.9281241397,-0.1836709486,-0.795505531,0.3928992534,-0.578754631,0.0161530892,0.6841518056,0.2169581211,-0.9536043767,0.1895313513,0.4245674741,0.2274101066,0.6193819022,0.70046954,0.7887100939,-0.6193837162,-0.9328093447,-0.6445393948,-0.0188928072,-0.8111495389,0.1514889061,0.8303591136,0.4458785212,0.378229292,-0.669637758,-0.3256537572,-0.7906950223,0.8510292691,-0.4136758887,-0.0592423977,0.0155010402,-0.7403279155,0.1541224766,-0.7618148996,-0.1256962604,-0.3738213313,0.9500131072,-0.9459134912,-0.5946357457,-0.9532083285,-0.1034110923,0.182301913,-0.4375572054,0.379793901,0.1873989034,0.3266504238,0.6214979876,-0.6124133871,0.8301945436,-0.3426003274,-0.565010793,-0.9860486476,-0.9456754581,0.857084992,0.6985079089,-0.0525020725,0.7327901145,0.7108219026,-0.7774922269,-0.9370207601,0.6003386005,0.243583941,-0.611634599,-0.0406683651,-0.8951012014,0.4853339896,0.6431017938,-0.4952160774,0.1592028623,0.9462687323,-0.2405605318,0.2393333293,-0.9779129124,-0.7620356632,0.0264407736,0.2509047661,0.1116478162,-0.0783750663,-0.3576241647,0.0026993725,1.3039079505,-0.917327758,0.0793640484,-0.3138643726,-0.8025674428,-0.0831234488,0.5732976259,0.1884283782,-0.0137430735,-0.2627617897,-0.0566147005,1.0239770177,0.3248552172,-0.6792011521,-0.0034514528,0.1466775616,0.4353008308,-1.242925349,0.3433650762,0.6470578086,-0.0413758313,-0.4641362585,-0.8824606652,0.2645052018,-0.0143577515,0.7586197811,-1.2714230315,-0.3008826472,-0.0281323358,0.2953143973,-0.0871351104,0.1160585911,-0.0090427845,-1.1367875136,-0.4754990355,-0.3457938331,-0.6912527527,0.0664229143,-0.6031146441,0.7464836856,-1.3357397547,-0.8113705239,-1.3778613715,-0.1481104402,0.6992384365,0.5419752057,1.31160176,-0.1953292428,0.3078067646,0.5354168653,-0.2552884267,-0.2347102242,-1.1657599583,-1.5502297123,-0.6734320409,0.0421650044,-0.4465623198,1.4397032545,-1.0097513733,-0.5397855839,0.1646687641,-0.2933718878,-0.6749967315,0.5505008103,0.3232726335,0.6947906993,-0.1334864683,0.0670190979,-0.0020241961,-0.0802389715,0.2909588957,-0.2547362616,1.799400091,0.0054646291,0.0874680493,0.1776529673,-1.8190962087,0.5251269624,0.0787693037,-0.6441441249,0.6213381728,-0.8025588177,0.4757140672,-0.9725333032,-0.7232727739,-0.3951104566,0.0720203316,1.0118043099,0.1110001982,1.3674543961,-0.1469048634,-0.2828082381,-0.2471743777,-0.9137799,1.1571808819,0.9592865133,-0.398796977,-0.1972634503,0.0577071781,-1.2141054902,0.0749492898,-0.0409079459,0.4976427328,0.2739082786,0.0544457884,0.4097065362,0.96255969,0.331703345,-0.0027070635,-0.1063695617,-0.8364699507,-1.0015296004,0.5969581573,-0.0439559967
biasActivation=0,1,1,1
[BASIC:ACTIVATION]
"evoagentsimulation.simulationlearning.ActivationClippedLinearPositive"
"org.encog.engine.network.activation.ActivationReLU",0,0
"org.encog.engine.network.activation.ActivationReLU",0,0
"org.encog.engine.network.activation.ActivationLinear"
